3D1E9F87
BD119444
BCB54EB8
3D891466
BD9B7F5A
BE0DEE4D
3DAFA740
BDA86375
BE088DA0
3DA9DD6F
BD20D659
3CDEA1C1
3BCE750C
BE19EE43
BE031D2A
BD3989DD
BE3C2543
BE00F915
3E0B312A
3D562007
3D27E902
3E058695
3B28A054
BDAC8695
3D80A5F5
BD43DA7A
BDD5FE2B
BCDB1563
BCC2B895
3D75E6FB
3BB83D21
3E752D96
3D4B2663
3D87743E
3C7B4493
3D71C88E
3CE99506
BC670C74
3D2579FC
BC2B3137
3E94FA43
BAC815EA
3D94E380
3B594FB1
3CF9BA3C
3E33DC55
3D8ED54B
3DB30F97
3DC7F9F8
3E228270
BCBD6943
3DFFD9A1
3C23E049
3D79BA79
3E292521
3E27C76D
3D4581C9
3DFA7965
3E1D1925
3DB0C509
3D359C94
3DAD6521
3D52BE01
3D49D761
3D271E7D
3CCAB446
3D562751
3CC35BF8
3CDADA70
3DB61EF0
3D76F7AE
3D1A7B2F
BE2BD2E4
BE6CAA6B
BDB1C945
BE337004
BE9A1B94
BE23748D
BBFD37F1
BE113BAE
BDE10430
3E311DAC
3E7B1A11
3DF75E16
3E496246
3EAB55A9
3E77E47C
3D989F4D
3E5EDB59
3E3AE713
BDEB1FC8
BE639DE8
BE2AD81C
BE1B4D1A
BE93A973
BE71D991
BD9BA875
BE46B626
BE238A1F
BC950273
BCE584A7
3CF420D3
BCBF2A3D
BD885F8B
BCA3AA56
3C0FABC0
BD29EDB8
BD0EBADC
BE6A4C75
BC159EEB
3E5D2806
BEBDFAC6
3CB54392
3EC24B39
BE664B5C
3C691D4A
3E398889
BEAB3AF1
3B994755
3E87A463
BEDA52FE
3DDF99E7
3ECE96FA
BE8C8551
3D71EB47
3E43814F
BE02AAF3
BC6995C0
3E0982E2
BE7F2BE3
3D0D92DA
3E33CD9D
BDA8FB55
3D11AA3B
3DB64A82
3F125751
3EB5B9C8
3DC757E6
3E58D0D8
BD47E704
BE614C27
BE1CD08E
BEBB70A1
BF0CE76A
BE3CB0BD
BCDCA439
3CA54505
BDA00AC0
3D167E2C
3D403550
BCFDA938
3D34446A
3E27964A
BEC6915A
BE9A97B8
BDD5B986
BE293218
BCBE0ADD
3DDDBE44
3D8C2FAB
3EA57E40
3F026193
3DFB506D
BDEC19FE
BE10F413
3F054349
3E8CFAE2
BE4F205C
BD4846FF
BE8B9B08
BE31B65F
3DC2F778
BDD240C0
BE40E1DC
3F16F749
3EC5D3C4
BE2F20E4
BDA28B82
BE915778
BE5D85E5
3BEB6685
BE0F7F2F
BDCAE5F5
3EBDE760
3E4F0717
BDDC583D
3C02FD18
BE252CA1
BDA01ECF
BC84960C
BCFEE2FB
3C77E2D7
BE5C9E8F
BE1A5896
3D94EAC8
BC5117B2
BD19302C
BCF5A7A7
3DF18B53
3C087C87
BC22401B
BE68BE3B
BE1E1306
3DEDEDC8
3DA50F3E
3B96ED9D
BD4003CB
3D8520A3
BD6DA767
BCDBF134
BE050475
BE142B93
3D1AC6D6
3DF509C5
3C453F8D
BD0472B5
3E0C527A
3B82CAD9
3B938952
3D002E54
BE5DF4B3
BEA95ECF
3D6DAD97
3DAF9DDA
3D3E6D03
3DF6B8DE
3C5A0447
3D0F900C
3D6B0E56
BE2ED2DD
BE783CDF
3D8ACD0D
3D9952C9
3D883F5E
BD6C1F09
BCA00834
3D5CC480
BDA1ADEB
BE2D6E1A
BE32EA45
BD47A75E
BC5D457B
3CBB575E
BF11168F
BF4B420C
BF0BD36A
3DCA45AF
3BBDDB52
3DCA9748
3EF80FA7
3F3D0CBE
3EFCEA5A
BF175ECE
BF6471F4
BF092C39
3E0E2BA0
3D0B9E2F
3E0A21F7
3EF7A744
3F48FAFA
3ED7E427
BE9EE26F
BEF3A27F
BE998F4E
3DFAB3D9
3D792D61
3E0B744B
3E4CC917
3EBF44E1
3E5CD0C7
3EDAD346
3CB6465B
BEE737B4
3F326DE6
3CBA7CD5
BF2C25D0
3EC0987D
BCBA7661
BEC32C6C
3EFD0D00
3D1AE01C
BF0026A2
3F4814ED
3C38B9F9
BF4A307B
3EC8BF8A
BD328A16
BED9CA9A
3EA13394
3D39B62F
BEA2C874
3EFC55D5
3C63FD05
BEFC7330
3E79410D
BD2C4B48
BE866A57
3EF95169
3F3AE523
3F0D7E7F
BE328221
BEB4916B
BDDE6531
BEA91575
BEE9FF86
BEA27C51
3F1FA73B
3F671B6E
3F134560
BE2BFE7E
BECD6C50
BDD6698C
BEEE337C
BF23FF52
BEB0CF69
3ED3C29E
3F11210D
3ED653DC
BDB22E7E
BE690F84
BD217FBD
BEA9A003
BECE599B
BE93F087
BD425B26
BE80601D
BDE549F5
BE23E4BC
BEC79AF4
BEAA2943
BD21B094
BE55020E
BE2A6817
3E1CDCF0
3D9F13D3
3DC325CA
3DF2F2EA
3D782614
3C1894E5
3E05697C
3DECB92D
3D9B3E89
3E332FA7
3DC08B1B
3DCBA7C1
3DA4DE1E
3D21E216
3D155C22
3DD00084
3DD2E938
3DFD6ACF
3D87060D
BE4C10D5
3DE17E3D
3EC15019
BF3EF919
3EBE6453
3EA43A69
BF1AD0F0
3E952755
3DFA8ADC
BE89B2CD
3E10A42B
3F00689E
BF7DAF62
3EFFB9E7
3EDB2AB8
BF4B35B5
3EC482BA
3D4E5B03
BDF0C47E
3D8E3111
3E79428E
BF06DCD4
3E8C07BA
3E4A027D
BED7080F
3E4E92AC
BF0968E7
BD37CD33
3F06C577
BF3F5F5B
BC29CBBA
3F474F32
BEE3183E
3D9D2B72
3ECE9C43
BEFAB3E6
BB5541E7
3EEE35E8
BF48208F
3C740CBC
3F4713E0
BEE05813
3DA93D35
3EABE082
BE9EA687
3CC4471F
3EA6497C
BEFC406A
3C954DFE
3EF8AABA
BE9B2676
3D806D8D
3E53ECA1
BD27DA16
3C5D32C2
BCDF71C9
BD99299F
BDC815AD
BE07FCC0
3C5C5222
3DB09F69
BC002825
BD753EE5
BE1358C7
BDD45428
BE76CC03
BEE4E135
BEB201EF
BC3CB0A8
BD628BAB
BDA4A9EF
3E5C5E37
3E8216B5
3E67896F
3E0E4952
3DDDA5AC
3E000135
3E57BC3E
3E8DD4CA
3E4EA844
