3d1e9f87
bd119444
bcb54eb8
3d891466
bd9b7f5a
be0dee4d
3dafa740
bda86375
be088da0
3da9dd6f
bd20d659
3cdea1c1
3bce750c
be19ee43
be031d2a
bd3989dd
be3c2543
be00f915
3e0b312a
3d562007
3d27e902
3e058695
3b28a054
bdac8695
3d80a5f5
bd43da7a
bdd5fe2b
bcdb1563
bcc2b895
3d75e6fb
3bb83d21
3e752d96
3d4b2663
3d87743e
3c7b4493
3d71c88e
3ce99506
bc670c74
3d2579fc
bc2b3137
3e94fa43
bac815ea
3d94e380
3b594fb1
3cf9ba3c
3e33dc55
3d8ed54b
3db30f97
3dc7f9f8
3e228270
bcbd6943
3dffd9a1
3c23e049
3d79ba79
3e292521
3e27c76d
3d4581c9
3dfa7965
3e1d1925
3db0c509
3d359c94
3dad6521
3d52be01
3d49d761
3d271e7d
3ccab446
3d562751
3cc35bf8
3cdada70
3db61ef0
3d76f7ae
3d1a7b2f
be2bd2e4
be6caa6b
bdb1c945
be337004
be9a1b94
be23748d
bbfd37f1
be113bae
bde10430
3e311dac
3e7b1a11
3df75e16
3e496246
3eab55a9
3e77e47c
3d989f4d
3e5edb59
3e3ae713
bdeb1fc8
be639de8
be2ad81c
be1b4d1a
be93a973
be71d991
bd9ba875
be46b626
be238a1f
bc950273
bce584a7
3cf420d3
bcbf2a3d
bd885f8b
bca3aa56
3c0fabc0
bd29edb8
bd0ebadc
be6a4c75
bc159eeb
3e5d2806
bebdfac6
3cb54392
3ec24b39
be664b5c
3c691d4a
3e398889
beab3af1
3b994755
3e87a463
beda52fe
3ddf99e7
3ece96fa
be8c8551
3d71eb47
3e43814f
be02aaf3
bc6995c0
3e0982e2
be7f2be3
3d0d92da
3e33cd9d
bda8fb55
3d11aa3b
3db64a82
3f125751
3eb5b9c8
3dc757e6
3e58d0d8
bd47e704
be614c27
be1cd08e
bebb70a1
bf0ce76a
be3cb0bd
bcdca439
3ca54505
bda00ac0
3d167e2c
3d403550
bcfda938
3d34446a
3e27964a
bec6915a
be9a97b8
bdd5b986
be293218
bcbe0add
3dddbe44
3d8c2fab
3ea57e40
3f026193
3dfb506d
bdec19fe
be10f413
3f054349
3e8cfae2
be4f205c
bd4846ff
be8b9b08
be31b65f
3dc2f778
bdd240c0
be40e1dc
3f16f749
3ec5d3c4
be2f20e4
bda28b82
be915778
be5d85e5
3beb6685
be0f7f2f
bdcae5f5
3ebde760
3e4f0717
bddc583d
3c02fd18
be252ca1
bda01ecf
bc84960c
bcfee2fb
3c77e2d7
be5c9e8f
be1a5896
3d94eac8
bc5117b2
bd19302c
bcf5a7a7
3df18b53
3c087c87
bc22401b
be68be3b
be1e1306
3dededc8
3da50f3e
3b96ed9d
bd4003cb
3d8520a3
bd6da767
bcdbf134
be050475
be142b93
3d1ac6d6
3df509c5
3c453f8d
bd0472b5
3e0c527a
3b82cad9
3b938952
3d002e54
be5df4b3
bea95ecf
3d6dad97
3daf9dda
3d3e6d03
3df6b8de
3c5a0447
3d0f900c
3d6b0e56
be2ed2dd
be783cdf
3d8acd0d
3d9952c9
3d883f5e
bd6c1f09
bca00834
3d5cc480
bda1adeb
be2d6e1a
be32ea45
bd47a75e
bc5d457b
3cbb575e
bf11168f
bf4b420c
bf0bd36a
3dca45af
3bbddb52
3dca9748
3ef80fa7
3f3d0cbe
3efcea5a
bf175ece
bf6471f4
bf092c39
3e0e2ba0
3d0b9e2f
3e0a21f7
3ef7a744
3f48fafa
3ed7e427
be9ee26f
bef3a27f
be998f4e
3dfab3d9
3d792d61
3e0b744b
3e4cc917
3ebf44e1
3e5cd0c7
3edad346
3cb6465b
bee737b4
3f326de6
3cba7cd5
bf2c25d0
3ec0987d
bcba7661
bec32c6c
3efd0d00
3d1ae01c
bf0026a2
3f4814ed
3c38b9f9
bf4a307b
3ec8bf8a
bd328a16
bed9ca9a
3ea13394
3d39b62f
bea2c874
3efc55d5
3c63fd05
befc7330
3e79410d
bd2c4b48
be866a57
3ef95169
3f3ae523
3f0d7e7f
be328221
beb4916b
bdde6531
bea91575
bee9ff86
bea27c51
3f1fa73b
3f671b6e
3f134560
be2bfe7e
becd6c50
bdd6698c
beee337c
bf23ff52
beb0cf69
3ed3c29e
3f11210d
3ed653dc
bdb22e7e
be690f84
bd217fbd
bea9a003
bece599b
be93f087
bd425b26
be80601d
bde549f5
be23e4bc
bec79af4
beaa2943
bd21b094
be55020e
be2a6817
3e1cdcf0
3d9f13d3
3dc325ca
3df2f2ea
3d782614
3c1894e5
3e05697c
3decb92d
3d9b3e89
3e332fa7
3dc08b1b
3dcba7c1
3da4de1e
3d21e216
3d155c22
3dd00084
3dd2e938
3dfd6acf
3d87060d
be4c10d5
3de17e3d
3ec15019
bf3ef919
3ebe6453
3ea43a69
bf1ad0f0
3e952755
3dfa8adc
be89b2cd
3e10a42b
3f00689e
bf7daf62
3effb9e7
3edb2ab8
bf4b35b5
3ec482ba
3d4e5b03
bdf0c47e
3d8e3111
3e79428e
bf06dcd4
3e8c07ba
3e4a027d
bed7080f
3e4e92ac
bf0968e7
bd37cd33
3f06c577
bf3f5f5b
bc29cbba
3f474f32
bee3183e
3d9d2b72
3ece9c43
befab3e6
bb5541e7
3eee35e8
bf48208f
3c740cbc
3f4713e0
bee05813
3da93d35
3eabe082
be9ea687
3cc4471f
3ea6497c
befc406a
3c954dfe
3ef8aaba
be9b2676
3d806d8d
3e53eca1
bd27da16
3c5d32c2
bcdf71c9
bd99299f
bdc815ad
be07fcc0
3c5c5222
3db09f69
bc002825
bd753ee5
be1358c7
bdd45428
be76cc03
bee4e135
beb201ef
bc3cb0a8
bd628bab
bda4a9ef
3e5c5e37
3e8216b5
3e67896f
3e0e4952
3ddda5ac
3e000135
3e57bc3e
3e8dd4ca
3e4ea844
